baf8efc3
ba399f4a
3a64860a
ba289660
bb1379ce
baa07842
3a956a2c
398286bc
b76e790f
b7525a0c
b92498f1
3a8441a2
b9c9d4a8
b9b2c233
3af34cde
3b2d49a0
3ae3b408
39e77c7c
39a79d4c
3aaaab92
b804051a
3aa9ad51
3a903a5b
3a4af994
3a5e6230
3af7abac
ba607911
3a8c7927
3a79b304
3acfd7de
3b31680c
3b5c3239
3a465654
39e8ff01
3a321294
3adee9ee
3b530a94
3b2d2db4
3a0659f7
3a53e7ba
