3a1872d8
3af92959
3b823da4
b958ce62
bafea6e2
ba690f5c
3a83eb5e
bae5bbea
b94c1c86
3a2007ee
b97ff0de
baf56d5d
ba87cf98
bb476846
b993510a
3ad5e47a
3a8a3896
3a5e589c
b8e56176
baa659fa
399562d4
3a95662f
3a07ecc6
b9cc3a86
3b26ac07
392dff78
bb034350
bb150c26
bae0528d
bb081f7b
3a4daf67
39c04ae9
bab09288
babf1836
38048026
ba915c23
bb08c5bc
39faaa6e
3b31f7bc
3a0e9876
3b8b936c
ba47edea
bafb3cb1
bb49a270
ba8130a8
3b1b39e6
3ba2abfd
3a6c021c
baafbcca
ba146bf8
3ac861a4
3b6869ee
3bbfda70
3b5a02d9
3b15edc6
3b3959ec
3b4ebe64
3bd39e8e
3c02a698
3bb7b894
3b91d7f4
3b925eb0
3b64baba
3be62520
3bb615f8
3bce9acd
3ba8819a
3bc80436
3ba7b866
3b5e2de2
3b0ae5de
3bd22f6e
3bdfbdc0
3bc9eec6
3babd0a1
3af1a637
3ad11848
3a9c4345
3b1eb9a0
3ab9cb67
37c4ebb4
39e3726d
3a628143
3a460d18
3ae70482
3b0a2db8
3a88751a
3adb72e6
3a06d100
ba2bf988
3ab89bd2
3b272178
3a98f7a6
39ebfcf4
b9b55414
bae6d21e
3a0c83f6
3b0501cc
3a2b520a
3a663be2
3ade83d8
3ab8e7f4
3a06531e
3993905e
3a1c071e
3aef4f3d
3b3543fc
3b25e796
3aded91f
3aa71e8e
ba1b4739
3aef9df7
3a064e61
3b529a92
3b4b5138
3b6c21d6
3af7b54c
ba2a7342
3b39ca8e
3b8e5176
3b89e2d8
3bc5f333
3b42f574
399af39a
3a9362e7
3b47202c
3b2c178c
3b9d6129
3b4a0805
395ec822
ba964da5
b9eb3426
3a9f929e
3ad3725a
3983b1fc
b9195007
391c6066
ba0d9579
ba89a53c
b85079a3
38c3d9c1
b9961292
ba58cabe
ba81c0d9
bb06d178
bb03a4c9
ba9042a2
ba5e2cd0
ba6dabaf
ba906332
bb7429da
bb7d34ee
bad4e9fd
b7d46621
3ac9d2b1
bad2a642
bb8a4305
bb28ce3a
37e0fe78
3b0ef009
3a99185e
ba9b9d3c
bb2a35a8
b9b9d9b4
3a874468
3adf1101
38a7be7c
bb16737a
ba09c838
39056cc6
ba134b07
3b296334
bab4507f
ba39838f
3a726d6a
ba374413
baa8a9ee
3a8b24bc
ba0fa58d
ba88c6f0
3aa684e6
39cbd505
383fa2aa
398dfe64
bab83354
ba425f1f
baf8382b
bb524a10
baf9e279
ba9f882a
3aa4325f
3b1ac364
39a5dba0
ba3ab6a2
3b10404d
b9d593b0
3aedd8b8
ba253d49
ba64a64e
ba75d4ef
39e69ef8
bb55a73a
b965af2f
ba4b5b54
bb087654
bb068f38
bafa5824
bab6fbaa
bb4425c8
bb983172
bb766331
bb1d6cfe
bb1e2096
bb2e52dd
bbb17930
bbaa51c8
bbc39158
bbbf4607
bbb8c65d
bba6bc96
baf84468
389c3e5e
3a145a88
3900f3d5
3a7b3b57
baa2a868
bac4adca
b92186a7
ba337ba0
bb2163ce
384f1076
b9e38275
b9db7ce2
397e20b5
3a8f19e2
ba2b8ce6
ba8c008b
b9e1a30b
3ae2408a
3a5d0005
3b804c1e
3b4fe3ab
39003dde
3ad7b186
3b5080b8
3b29f89e
3a99fc7d
3adf57a6
3acdde66
3b235882
3aa33bf4
390a7772
3a8d0264
3b61109c
3a81d8c8
b810c410
3a83a93d
3a7982be
3a124d0e
3ad8e168
3b8461f0
3b6a084a
3b21c452
b9241a8c
3995d23a
3b43cf0c
3b873804
3a8b5c2a
3ac8a2f2
37e024a0
baa09f28
398b3c34
3b7acfea
3b27e372
ba8045f6
39834c43
bb169678
ba9fc35e
3ad7fe7e
3ad0abb8
b98fcabf
39b50916
ba013e4a
bb36f7da
ba0d3506
bb2de9fb
3b0c9564
baa18bcc
ba9ba7ea
3a9ede4e
39dffc1f
bb29f6c6
3a0b1f70
ba9b8d1c
b9b7c310
b93b5e0d
bb2b8f22
ba89a79d
ba8213f0
3ae1d6a4
ba16bcca
ba85431e
3aa7451e
b994c6aa
bb01057d
39df55c2
bb05f4b4
bb223fea
b9263a76
bb0dd864
bb0cb7e6
bb369886
bb80f6ba
bb894bdc
bba34a84
bb4cea87
baca3031
ba9f7d68
bb5548e0
bb6f8c1c
