3b7a4c50
3b3ef38b
3b2a0876
3b1645e2
3adf1cf4
3b8318ba
38e61546
3a2971d2
3a811abe
3ab76d87
3ae40bba
3a9bf642
3ab77994
b9f9495e
3a03a128
3a3ea187
38732e28
3b0fbeb2
3b48c62c
3b225b2f
3b1a50e4
3b12108e
3a03d161
3b380807
3b7d968a
3b1bd6fc
3a5d22b8
3b06c984
3a9bd5fc
3b0ff844
3aa5736b
bacd9d5a
b9de5fda
3a18fe54
b9e9e534
3adf730e
3a93de00
3a970aa8
ba8557ff
bb17d65e
3afaca6c
37b70d28
3b078746
ba3239a4
bb274352
bb83baf6
bb243adc
baac7b04
3aa6ca94
ba938b18
b9e9244c
baf94d43
bb0bc232
ba89cbc4
ba683e4b
ba8b7fac
b99665a8
b96c7fa3
ba674806
b9864b16
bb502822
badfb1f8
ba1db1de
ba5cea84
bb0302a1
bb446a3b
3a62de4e
bafb1712
39cc5e62
b8a7fd51
bb0fc452
bb868058
baab306c
3b914d1e
3b87e336
3b9a09f2
3a8ea4f1
b7dc6a98
3a9b32d0
3a741efe
b9562a44
3a85f653
ba3914c2
ba9702d6
ba17f004
baaf3426
bb5c85f5
bafb3b8e
bab197b8
ba8382d8
bad6800a
bb49d116
bb2ba6c0
ba53951e
ba5c9229
b9f4b8db
ba0e038c
ba0e87bc
b91b6871
3a890cfb
39d5ca79
3a07a870
b9fd4e29
3a0d8708
3ad536d2
3a0784c5
ba5399de
b9d759b6
3928ad15
3a371d56
b9491280
3acc40a4
3ad90717
baae4a67
3a57d388
bae7b599
ba7fe602
3a305e35
ba9d8b23
b9c0fee4
3b44fd24
3a5546ba
b9ddacd6
b9b58bd5
3a0ab7b8
3b35477d
ba921822
3abda398
3a0b6c88
b9df03f0
3a0453e5
b9d51ce2
bab56ed1
bb22d9f1
3a918a0a
3ac96ad0
ba0bbb00
b8b601c4
39dbf83e
baef57b4
ba760fa2
38b852cc
bb1afa62
3ab0f44e
ba2b6610
bb473dd4
bb945e85
bb7ff4c6
bb1f087c
bb08bf54
39fa19b4
bab5862f
bba9f4ef
bb67cb68
3a161618
ba910af8
b95a39ac
3b05a21e
bb1042f4
bac0b0d4
3b642286
baa3e7e8
ba2f25e1
38da8f2e
bb1b622f
ba9b3925
3ae606d1
ba79fb18
ba95eb2a
babfc00f
3a34e86c
39d7d293
38b82e04
3a4e79bb
399e1cff
bab3a290
3882bd0c
3a1a63a4
baa3c72a
3a8bf9f9
3b0e74b5
3b835792
3b18a7f7
b9f53d90
b8949be8
3a57dec8
3b69cf71
3b573df0
3af373c0
3ae8a60c
3b7e4aa6
3b279bc8
3b374e8e
3b0e9135
3b3cc62c
3b0f5064
3aec1911
399d606c
3b0dce64
3a4b6832
3af7f1c6
3b055f61
ba8d3d53
3963a416
3b585fb0
3ada78ee
3b34cdc8
3b38d988
3b2a402a
3af3b34b
3b8253be
3935aca0
3aa6319e
3b336be2
3b890862
3a82831a
badbc94a
b95108bc
baf0a352
baf13fdf
ba9b9690
bb0d43df
399ce473
39c6a49e
bb33a506
bb5e2800
ba129884
bae62ca4
bb194601
bb189268
bb48e6bb
bbaf04d9
bb5e1e35
bb16ee3c
bb6e8bb1
bb5431d6
bb1b7e36
bb57e8bd
bb8f2e92
baf675f4
bb15bcde
bb2f3a59
b9afa8fc
ba0bef74
bb39f390
ba53911e
bb5db13a
bb0a4540
3a389878
b96d7ff9
bb1bfb64
badd5632
ba40117a
3a8dc6fe
b880a0ce
b9f5c5fa
b9211ead
b977b838
391ef3b6
ba628292
b9cf9bda
bac706cc
bb06f67e
3ace94fa
ba40a560
3b627b77
3acfaebf
3a154cdd
b883a664
3a45bd0c
bb278cf4
3b80a098
3b69a080
3a7f5389
3b26b548
b7f95ace
b9ca5745
3a50707d
3ada5fee
3a899b92
3aa70258
bab4a65e
38e602d0
ba24cd59
ba392424
baeabed2
b9d2d153
39a692da
39c155e7
3a03b5de
3ab92db7
39dec1c6
3a95efa6
3a8ba63c
3a2616d5
3abc06c8
3b5cf874
3a65bf56
39fe14f0
3b6d9e4b
3a5699e8
3aef492c
3b955db0
3b6ecd71
3aee8b80
3b309d28
ba503640
3a6a9571
3b918968
3b83c098
3afd4738
3ae3dd96
ba8537d4
3a3a71ce
3a92cdb4
3b1329cf
3a754670
ba16dfea
bba9de4d
bba9b87c
bb1b6edc
bae9f987
baa658f1
bad0bac9
3b0f564f
39cdd865
3b2d67c2
39fe48b0
3a53856c
bb42c61c
3ba9ab56
3b0c4e0f
3b0e38fc
3b2aa4e0
3b6bfbcc
3b29f43c
3b9ab391
3b7cf71e
3b5a1193
3b44d71a
3b632d28
3a7bbc86
3b4d7afc
3b5afa18
3babbede
3af67b21
b95008c6
ba611824
3a3d477f
3a977d3a
3b4fe496
3af01dd8
395f2dbb
baa737cc
3b01090c
3b8dac7e
3b37a6f6
3b3592f7
3a8747d2
baf1bde0
3a8e354c
3920ed66
3a28d468
39cd04b8
3a703835
3a00ecd3
badfbc64
b9aa3972
b9814fad
bb1d966e
3b0072dc
3b58e6a2
3b83e7f0
3b49523a
3b1a9cbf
babea8e6
3b499346
3bbc20ee
3b87d99e
3b7dd162
3b93de5c
39e77306
3b1e9208
3b935336
39e840d0
3b22f9ed
3b8db376
3aca5610
3a943bb5
3b12a0c8
389eef7e
3a010bfa
3b0346a0
3a8bab5a
3a60a5ee
3b1eab6f
3831bafa
3a8055e4
3b2dfeee
3a3e4770
ba22b0e8
bb14c530
b9c44f20
ba239e82
b9deb83c
39deded1
3a5fcd76
baac9aee
ba695626
b8e6a0a2
39b41bd6
ba0caa3f
3a5272e6
3adff828
397e3e0e
3b1eaa8a
3afb7140
b949fa75
3a4fe914
3b004474
ba53f873
3a53b50c
b9931748
ba8fd39b
3a9bcdfc
3b244cd8
bace3b72
bb097054
bb33b5d8
bb48c9c2
ba78bb48
39f5036a
ba958452
3b2a9d60
3b95b856
3a006ef4
bab425d4
b9f2a664
ba90c7a4
3a804178
3a996c4e
ba737d1f
b8c73e76
3b3cfb14
3a0cb91e
3a8b716a
bb3e3066
ba416c3b
39a30348
3a660cc8
b9b546a2
bb03ede4
bab0b6b6
b9bfe624
39ddc32e
38daab42
3a2cd50c
376079d4
b9e23a9d
398e17f4
3aed732c
3a72e69c
b9b13e3a
3ae94ba3
ba7c3d70
bb33f0f5
387f8526
3a583d8b
3a809589
3b15006e
3b06e4da
3b8212a1
3ba1cf5e
3a9a89c0
3b5d318a
b8a53e78
ba2ffe2e
3b4e1b38
3b4da734
b82d9d66
3b8af311
3ae526fe
b995c7c2
3b5d7522
3b9f7389
3b0d1bd4
3b319ef5
3ba8ad21
3b5290a3
3ab181a6
3ba625cf
3bc34710
3b7e02b8
3b895588
3b8d73a8
3b59f228
3b6a38dc
3b8dad24
3b8c31d0
3bbefd5a
3bf153a6
3c06ac00
3bb11a00
3b69026d
3992a40c
3baee456
3b9f3c49
3b9b17ec
3b51e111
bb7f4630
3af15d59
3b8dab11
3bab6f0c
3bce2490
3b8f2f6c
baab6956
3b387802
3b9bcd0a
3beccacc
3ba638d6
3b89a17c
3a99dfdc
ba3038cc
3b3de0d7
3ba4347a
3af79c1e
3ae8472e
3ae52b8f
3aca3102
b9d19699
3b0a17a2
3aa85a56
3af89f75
3b1ed7ca
3ba9b18c
3b7a143a
3b2a4100
3b064f6a
38101d97
3ac278a7
bb1acee8
3b0e067a
3a3e0930
385db6d8
3a500c0e
baf30b72
b98b347c
39bf87dc
bab5288d
38a1e4af
3b121b32
ba1e2718
3a43bcee
bb058788
bb3f7458
bb01ac4e
3a8c1428
3ab815ce
3b2ca82c
3932d1d7
ba8118b3
bb314499
b91468e8
3b509344
3b186050
3aae54ca
3b6bd5b1
3b6c1950
3b2c3fac
3b02b1ef
bb050f18
bb2de858
bb68d024
bb691698
baf7aac4
bb81f0e0
bb0f30d2
3b22ce7d
3b3705b0
3b5389e0
3b10ac59
bb32c908
bb1e5c52
3a38cb04
b7b09612
ba468168
ba4cc2d0
3a8643b6
ba5e1720
ba36bbab
bb560810
ba89a91f
3a8e2274
39e9f45c
3840bd98
b9836b6a
ba986e3e
399131b6
3b146fc0
b9a72d34
bb665711
ba93bc3a
baef6ce7
39013f74
3aff9d2f
ba7cea1a
bac1617f
bb3d1bdf
bb620c4c
bb6989d8
ba921658
ba01d0e1
38280742
b7ea50f0
3b483c7c
3b8bd5c6
3a1d172b
ba51e2a6
b80d364c
3a428712
3b5b019d
3bae9af3
3b9a9b9e
3b16183e
3a169fdc
3a9cfaa4
3a259ad4
3a9fd0c4
39ad1ce0
b8bd0920
3a69664c
3b40241e
3b18b6cb
b9fb13f2
bad4fb4e
3941544e
3a2f24ea
3acb38ee
b8fb6388
ba85042c
ba0902da
3ad48c38
bb0e2c0a
bb6b064e
b9eb83f0
ba54f4b4
bad0d2f8
ba33395c
3a292770
3a280976
3a920d9a
3aafc692
3b035425
3a941af4
3b220f3b
bb14c40f
39c98bcc
39c5a832
3a934688
3a84f556
3b8a9f57
ba1f8f8a
3989586e
b9af7078
39b900a0
39502514
b9644bb4
bb76133e
bb5e2643
bae5c02a
bac6f300
badb65ed
bb29f3b0
bb56a8d0
bb5310b7
ba9180f8
bb3220e4
bb1980c2
bb09ad88
badd2222
38b7d4ea
b971e249
ba287327
b98b89e4
bb7b7df6
b9ca09f9
3af0f186
38941f5e
39c6d48e
bb06809a
bae91f0c
ba99448f
bb24174c
bb6c48ec
ba9140ac
bb0a2668
b9c07a6e
3a5511dc
3b1af618
ba34231a
b9d8f594
37d32d98
3ae56b3d
b920cb38
3ad01d97
3b5c7fd7
3b15de42
b9e13346
39da412d
3abc1402
b9ada275
3b824ab7
3bbb1bb8
bac8b58c
3b07e704
3aa5e752
39f25292
3b6c7435
3b8a086d
bb31f552
b9c015d0
b9e7bd82
3ac6f0e0
3a6a46fa
39a50929
3a9970f8
b95c8a36
b9a85af0
ba0bf144
ba31eb92
bae0f178
39bb3a32
ba0265fc
b929b8ae
b9fb76ae
3a5829e8
3a9eb986
baa3ef39
bafbbc4c
ba2c3319
ba24983b
b897f822
3a58718c
ba8f42b7
3964ad3f
b8f64622
ba9f40eb
bb534f52
bb28b142
ba8342e5
b88dd158
bac7df42
b961f0b2
3a933753
3a2d9434
b9166c0a
ba10a418
bab3a09e
bb93b9f8
ba980990
3a84c775
3b23d500
3b5b1130
3ac5bc1e
bad1d582
3470917a
b9b23f8a
3a9ad5c1
3abb9ce9
3b0ed0ba
b8a03db4
39c67953
398fc902
3a9f7bce
39c57a3e
3aa738f0
3af66bd4
3b00db58
3a22c0e8
3a970116
3b17d81a
3b461608
3b0ac1dd
383dde9e
ba7ef726
396d6586
3b0a9986
ba2874d1
ba30ce8b
ba686548
39a9266c
3959c109
b90cf0b2
3b882524
3b588672
ba7bfd08
baa071ca
ba2d8753
3a5692a8
3b23fcd1
3b583d18
3a1bc6d8
ba78501d
3a2e3ebc
3b6a3c54
3afad27a
3b2b2c00
37b62cc4
b937d1c4
3adb1c27
3a994f8f
39d1a4b8
38b99566
bb13faee
bace8734
3954149a
3ada3dc0
b6d7bb74
bb3b71e9
bb108f2a
b9ea3114
ba75fff6
3a94acd4
39cceeec
389eaeb2
b9c3cff6
3acf4cb6
b9dda579
bbac1cb6
bb4a8fca
ba4553a9
bacafe43
bad6d22e
bb93336c
bab63b74
3a409044
3a2b2e9a
3a3ef92e
3b3d1d3b
3b0662e4
ba24b822
3b183ce4
3b62ece6
3b2b4a86
3b6d7ed4
3b368f47
ba8f6ebe
3b471746
3bcba050
3b104acc
3a9dcf90
3879dbde
3afb9aa5
3b88dbdb
3b68bed4
3b63d4b2
3b701b1a
3a54e1ae
3b875ab6
3a60b4e5
badadf40
ba0ac26a
3b2120cf
3b6777f8
ba78cbad
bb10b246
bb1205da
ba455cda
ba007b7e
ba38e5b4
baed65f2
bad5482f
bb00b79a
b9b2a904
39a9ad0e
ba94ca54
bb2d2cd2
bb410420
bb18c670
bb5ac166
bb004dec
b9f2d4f5
bb098961
ba990c94
ba4b61f6
bb7ba3e4
bb6dc312
b980c238
ba8beaa6
373fa8ae
ba9491a6
bb1ca190
bb64cb82
bab24ad8
3758c288
bad9a080
bb2043d4
bb225e20
bb8ef6f2
bb71eb96
3b0f1bf2
3b60ab27
b9f7d9de
ba761da4
3b94374e
3b44002a
3a33e191
3ae8c614
3a8d0414
3a893324
3abaf456
39f44bc6
391825d3
b9d24a70
3b0d1816
3b6ee19c
bad51139
ba931ab0
3a22efa9
bb734410
bb2683e2
bae4e6f6
bafcb8a2
ba894866
bad71ed7
bb93fe76
bb3ac58c
bb168e8a
bb449592
bad18fc6
3b7e22bd
baa09ed6
ba112058
ba6cb57c
ba756c36
3b0ceede
3b2877ae
39fe9ca6
bb68195a
bb22d33f
3a1640b2
ba945088
ba15d472
3a3d5a68
baee0708
bb08b31e
b9da069a
bb2aecb8
b8c06933
b9e327ea
bb585f72
bb217d00
3a5b0394
ba19e571
390fadae
bacf7c12
bb655a18
bb1d6595
3999d0b6
ba7388ae
baf6a05e
bb114e86
b9600d5a
35a0770c
37818954
bb2dcd58
bb1221e8
3acdb257
3af12af6
3a9cabbd
b88dfc3c
bb06971a
bb11d91a
bb023b7f
bb9c0930
bbb9f3c5
bb8d1ed0
bb14816c
bb28fc3a
ba9d26a0
bb536254
bb412536
ba64a32d
bb149cc0
bab29740
baba8376
bb8d1711
bb840a70
bb33ab9e
bb6944ef
bb1c4dda
bb195782
bb803a34
bb4296b8
baaabe0c
bb42d4fe
bb3baa62
bb44ecf7
bb2785de
ba5ccaac
ba1d543a
bacbfcc0
bb498256
bbd75a38
bb87e35a
bb73b9ef
bb92e88c
bb2e9ab0
3990b74a
badb5c6c
bb42641a
bab032e8
baf23cb2
ba7b8712
ba10a366
ba8763b8
bae4ce37
bb57c549
bb4008bf
babb59a0
374155ae
ba3f85b6
ba8414b7
bba12dd8
bb475f3d
ba92f840
3aa09f84
bb0d38dc
baa5c304
bace2bdd
bb3b71eb
b9dbdecc
bae9745c
bb236bcd
baa9bbac
ba8d6ae2
bb1bd6b0
baa6352a
bb97898b
bac7cb56
3a25f70a
3ada83be
3abddd28
bafbc2d8
3ac44bea
3a9c337c
39d19c7c
3a5dcac8
3af89afb
3b19d1e6
3ada3f79
39a7abc2
b898089a
3b048e37
3aaecaa1
3ad5bcfa
ba6c645a
bac83b5c
bb215842
baadd94c
bb2d7d4e
bb013c66
bb136eda
3a1c8a24
3938bb92
baca9a16
bb104094
bb0a0c8c
ba94a104
3aa35a62
b969675f
babc8176
bac969f6
ba6a1770
ba209c64
bb311235
bb855150
bb5fa999
bb296ffe
ba35d7a0
baf1c386
b9d44d54
3b26f0e0
3b89eae0
3bdc24fe
3af0e38c
39c6e6ec
3b3ebe1e
3b1f888c
b9203f04
3b5a864a
3a6f51ae
3aacdc5e
3b4c9176
3a1f8ddc
b87e3c7a
3a66d3d8
3ac594d4
3abc3582
b9d945a7
baaf13c6
3b157bc6
3b067eb6
3b0dccd6
3b43a115
bb147c48
bb3b482e
3b01ebc9
39b4cc4c
b9584c06
3ace70c6
b990d839
baa3eee6
ba9d8870
ba106b36
baac3f24
bb2bd146
b9c741eb
bb644217
bb98fed4
bad8b020
bb066784
bb202958
bacd7330
ba089498
ba020bac
badfa4ee
bb8192de
bb610681
babf93fa
3aa9fb4e
3ac33b70
3a8097f8
bb595d2c
bb8756aa
ba08c558
3ae3575e
3b47ac4c
3b00551c
bacadd6a
bb376ba4
baa8a766
39b98ca2
b803d66e
396269c8
3a8e6ce6
ba4014df
baaaee52
bb1e683c
baeb09be
ba24dbc0
b89d852e
bb08bc14
baacefd8
bb12920d
bacdf8a8
ba9851da
bb677be7
bae9e928
badacfee
ba8886ee
ba74466e
ba203e1a
bb22f076
baa3a1d8
bafb4216
bb9ad330
bb8d68eb
bb50a734
bb5161c3
baf1fcb5
bae41fd9
bb617c67
bb551b29
bb79d732
bb36cc6e
b8156c91
38443dcb
3a0b44df
3ae37b3e
ba14ea5e
ba860af8
39bb2cba
bb2da915
bac28c79
ba502c80
bb19b0c4
ba8dccd2
bba1dac8
babea0f7
ba74486b
b90eca12
39342538
bb2a51fa
bb839a56
399ff2a2
baa93bf6
399f4c1a
3a154d2a
bad24d7e
bb199e4c
b80d0003
bad33d62
b9fbed9a
3adcdde8
bb725ace
baf49b58
3a26b18e
bb5d7cf8
bb3d0312
391e0acc
bb4f24af
ba5e6f9e
b81cee4c
bb799e35
baa4bf1f
3b02e198
3ab07634
3a70d8b0
3b385da2
3b8ca112
3ba8fb75
3af1e53c
3992adc8
b83b306c
3ad74dd9
3ab0623a
3ab03da2
38a2c0c0
ba4a3c2b
3ad09133
3adcf5fa
3a2a6386
3a3988ce
b92bb970
b9a047bd
b986a7ba
3af288aa
3b5a4eb1
3ac720c8
bb22f7f9
bb418f1c
bb3fcd25
baa18a20
3a1ab466
3af5b74a
bb37e687
bb5e2c4c
ba524a87
bac41c07
ba3f4a42
3b2d4ede
3b2894a6
ba81e236
bae1bd81
ba9b5f3c
ba94f81e
3a813f5c
3af1ee62
3a0ee2d4
ba37f410
b751671a
38eaea51
3abb085a
38c4f0a4
ba899782
b9709d1a
3a8c8582
392ac9c6
3b1b01ce
3adc9b0c
bad3e3db
39ba0878
392256ad
3aab8077
3b24fea9
3b76220e
b8960a6b
3a6e1d6f
ba265218
3bb3806e
3bc8be4c
3b9cc80e
398108fe
3979403c
39e14769
3ba4f3e3
3bd39f10
3b3bc8e2
3a6b201e
b84eda4a
3a668d4a
3b558af0
3a7fea01
39be6d70
b995fe18
b9efa17c
ba7dd9f2
bb2120fa
bb4e0ad7
376f6f66
3a8d9eb4
3b269f7b
3a0e46c8
ba640747
39b1e5ae
3ad9fde3
b9206294
3b0a8192
3ad33b90
3b322ae7
39929478
39ab0106
3785301c
3ad3877e
38b4cef8
3a8e00f0
39bb8793
3a120ff6
398a867e
3b03e221
3a8a7c40
3ae46b59
3b459558
3b74d72e
3b8876b0
3b12d8c6
3a92c087
3ae37b91
3b964128
3b020bc7
3b3909eb
b962cdea
ba16cbee
bb02efc7
ba827162
38b56501
b9b99770
3b168718
3b0bb920
3947e106
3b365bf0
3b647131
3b1dd396
3ad735e6
398d53fe
3ab9860e
3ad0c46a
398914e0
3b6ae136
ba234aa3
3aa13faf
3b27d2b0
3b31d30c
3a2a768c
3b400302
3adf99fa
3b474e44
3b9fe104
3b61e197
3af611c0
3a8c5438
b840b7c2
3af2caae
3ac221ba
3a94bd34
3ac674e3
3b28f4e2
ba27101c
3aa4b43e
b9baef5d
ba610130
bada57ba
37c2bd5c
bb1a366c
3a7d7821
3ae0ddec
3b842ff0
3b04366d
39a567c8
b991dfaa
3ae4508c
b9d828a9
3a05693a
3b62dcfa
3a935f72
3afef254
3bb0a7d8
3b6f0336
39f21208
3aac4e01
3a838326
3b1f05ea
3b820dce
3b3916ea
3b0cf6d1
3b2d9fd1
3aacf508
398c351a
3ac69c08
3a9bac5a
b8504c0c
3a9ec2a8
b992afe4
3a3ef125
3b730d30
3ba2e84c
3b202d01
3ab2dfec
ba65202b
3b64e03f
3b131d9e
bab81842
b95d13b1
3af9c992
3adb8d58
37fea3c4
3ba1173e
3ac5ab78
3af75f72
3b3725b6
3abd6c08
3b3dca58
3b33f21a
3bd6e3ba
3bad1c36
3ad092b6
b89343cc
3ab9bdac
b9496d10
3b8c69be
3b9e4bdf
3be2e8f2
3b1027a2
3b0ff07c
3b9efa4e
3b4555ce
39872a9b
3baddd40
3b42fcf3
3a4a7ee3
3a517056
ba90caed
b442526e
baad12de
bae675ce
3b2d389a
39d9b394
bba80b69
bae34e28
3b0df877
3b79dd64
3babdd42
3b810dfe
ba0cb4da
b99a7b50
3bcdd614
3bcc8a7e
3ba29891
3b99662d
38af5152
b85393a2
3b9c90c5
3b32a1fc
39357274
3943304c
bb53db99
ba391cfd
3a857be8
bae6c4c0
bb132110
bac427ed
ba88d835
b9d3a91a
bb430398
bacdbb77
ba03274e
ba921d58
ba039dc6
baf7e637
b9d4eaea
3a05d368
ba3b69cc
ba8e6254
baf77b3c
ba97ef5c
ba149fe1
b98f28a2
ba751484
bb5c24ec
bb683ccf
bac5035a
3a073b63
3a96cfe8
ba0134fe
bb63e9f0
bafce410
baacf802
3aaa48ea
3a1e4f6e
39cc08f8
bac8d7eb
3b1336e4
3a366d26
3931e35d
bb223169
bb0e1223
b9d72513
3ba899d4
3ac42c5e
398951a4
3a1073f4
3aadd2d8
ba9192b3
ba74c1c9
baada15e
ba7fecbc
bb322558
39e285b8
393534d8
3896537c
ba0099fc
38721244
ba6a0c47
ba810f58
b96459bc
b99c5d56
b943c2b4
38eb7f52
ba82163c
badfdd16
b9c97a58
ba22bad2
39996c30
3a4289c7
3841a0d0
ba85c4fa
bb0b6cb8
bad16928
3a789418
b9513496
3a4f1fa8
baf43332
bb5b4ca2
bab85df0
b71c2476
bab1adab
bb262988
ba9e830c
372f73e2
b9a6fcb4
3a48d5d4
ba16cdfa
ba8e3530
3973a90a
bac48c55
bb6ff89d
bb28c7be
bb241acc
ba731462
ba528086
baca23b2
ba982863
b90d843b
39093801
39b09498
ba858dfb
b9c28140
3aaa0914
3aaa4351
3abb39fc
ba492b26
ba5d7ece
3a827008
39435b3c
ba01fa6b
3a6b23ad
ba2c6757
bae72bb1
ba2cf55c
39423350
ba1d9b35
3943208f
ba4a2c0a
bad13b32
ba904411
ba83c7c0
b7a09721
baa6f644
bb5a7d32
bb2755ad
ba4ff73a
bb20b3be
bb86403c
bb84c051
bb8457ff
b9dcefd3
bb1748dd
bb160e26
bace8512
39ea92b1
baa9490f
3a31504a
ba8d31a4
3839a36a
39b4db7c
3a9b0ad4
ba23938e
3ada114d
39986522
3a802f20
ba156ec5
39d95829
39d39ba0
ba776d44
3a3a1047
39d409a9
ba8d4de0
3a1b4333
3b13559e
bb09dac4
baa7ee84
bb361000
bb53492e
b9941809
ba205816
ba62fb58
3987dbbe
3a6bd406
3a373920
3a40470a
ba4b23d8
ba984be0
babcaec7
ba9c87a6
ba9a94ce
3a1010c4
baa01807
ba3f8b32
bb028ad0
b897d532
3a8d2f30
3adbf18c
ba21e000
3b355c9e
ba88c250
b9161177
ba0f1376
ba23a3b7
3b00f7f4
b97567ab
bb13d175
3a8687bb
3a360451
bb002f32
ba920e8e
3b4a0225
3b58effe
3b806881
3ac9f63e
ba38e7e9
3aaf7476
3b19ae54
3a11120f
bb001cca
386714cc
3ad2f0b0
3a4ba5bf
39960c0b
bae204f5
bae595bc
ba94b458
39671e5a
bb1421de
bb31acc4
bacbe500
ba67d59f
ba9431ee
b7dbab91
bb2d5586
bb8d04f6
bab13f30
b9bfc1b4
b88a1202
ba92132f
bb04174b
bb83058a
bb1fbe5a
3ac503f3
39ec41cc
ba7312c7
3a1da591
bab4efa6
bb0bc7be
bad7ac9a
bab0d460
b953e510
b9ab4b38
bb2cc6c0
bb6fe6e3
bb2c0edc
bb3c8715
ba4e0c70
bb318ef6
bb15786c
bb608d98
bae2547c
bb122a56
bb042dba
bb63811b
bb7da4d4
bb652ce2
bab0724a
ba7e480e
bb022990
bb817ed2
bb9e0450
bb403716
bac3db60
ba36b601
baacf438
bb76c035
bb8582c1
bac32ff0
3a827806
3aab1a99
3a2044c4
bb0210b7
3a807380
3afd28de
39f1bcfa
3a7ad800
3aa2bdf0
3a584bce
b9176607
b94f1e46
bb0e6406
baa9299e
ba88c2d2
baf940a9
394f64c5
bb87ab0d
bbd55d02
bbb9c1f9
bb050648
3a93195e
b99217db
bb42138c
bbad2535
bbf00c08
bb451913
3b0263f8
bb1cd2b0
389dc540
393f69c8
ba35c018
ba3d3006
b99b941a
bb09a7d0
b9bba4f0
3843a6da
b8bb50fe
3a560a10
b955d9c8
baae13dc
bb7523a9
bb074ef0
bb3a60da
bb9dbb19
baa0b55b
3b155e52
b9da7bb1
b9f6041a
3ab233f8
ba4850e9
b9cf9542
3af300fe
3a6f15bc
b8f250fe
3a6fe0ce
3adaced0
b9eb61e0
392f5678
b8f522e8
b9d2c510
ba26d474
b6fddfe4
ba2cbb87
bae1fa02
bb268bde
baf202bf
ba8f05fa
ba8cee2c
ba6cf9f3
380d207e
bb25b05d
babf9cef
ba07aa90
b9a2338e
38b1916a
ba4dd0d3
babd583e
ba2f1227
ba04fd68
bb14ba5a
bb4c5aa4
3a440972
bb06e032
bb500784
3a60c488
bafb8625
bac9a263
3a6700c0
baaae7ba
baf383c4
bad8abf3
b7ce4250
ba0e494d
b9b30b5a
ba485098
398fc532
ba3f5170
3a1ea4ab
3a007b9e
ba51c866
bb4e718e
ba5e1306
b8ef4176
ba40deac
b99abf52
39dba542
ba9277ca
b9f275b3
ba356d04
bb2b6142
bb0a2250
3aa3adb6
ba2bdb64
bb53ce28
bb21d67b
b8931092
ba65af06
39c43d86
baf816be
bb726202
bb455b8a
39b4554c
3aad9e3b
ba256fe2
bb104760
bb0b86de
bb0bb194
bb09620e
39f66840
bb2c3d7e
bad6db2c
39f91ae6
baf428fa
bb735a04
bb0c0062
baef141e
baaaa303
3b43ef28
3af2604d
baeb70ea
bb0bf93e
3abdcc13
b9c681fa
3a8e9e24
ba2d8b6a
398a3ecc
3afa29cf
399d26a4
39d0825a
ba8aa070
3ab02fc2
3b4100ef
3a444e7e
3b0253a0
ba8e0492
bb7f906a
ba960530
3ab9530c
3a82b2e6
ba92aa5c
bb3588db
bb0438a0
bad5aa78
bb0c9598
bb46ef62
ba93090c
39e61b5f
3accb94e
39b225ce
ba69077a
bad2eef4
3a3c87a5
3b4e1e01
3b215d7a
39b9e2f6
3933163a
3a11328a
ba765c30
3aa80f3a
b9adcebe
bba1138e
bacc0d9e
ba1e0454
bb0d69c3
3a495974
3b0bfaf6
3b102716
b9a76b8b
ba960de9
bb377334
baa320a3
3abaf23c
3b6e30dc
3ad70931
3a9dd0c6
39f06443
3b1931aa
3ae3e5ab
3b4d4c17
3b570556
3b87fa5c
3b9b6d62
3b6ce28a
3adda39f
3b5b0d8d
3a00a170
3b4f113e
3b8103e2
3b094fb0
3aba7569
3b79ef24
3b4b9c8c
3b4b43a0
b98d9914
bb14f7ca
ba3140d8
3a1d28d4
39fcc1e1
3ae2aa76
bb0a7d40
3a4c5ac8
3b86013a
3b3b77ee
3814590e
bad3076c
ba58b62a
ba8ab1c4
3a86f876
b9d1dfe4
ba96462c
babe022a
3b08f30c
ba099070
bb8f1b55
bba90e6a
ba8532c6
3b1ce66a
3b0062be
3afe0664
3b6e78b2
398a2287
bad3931f
3b32062e
b90a345f
bb572ae7
ba84066f
ba682cbe
bafbb90d
3a9204ac
3bcf3189
3b71e11b
ba865dbf
3a4011f0
3a629d3f
3a9bcee4
ba9dd73c
3ad9174b
3b747eef
3b80297c
3931a444
bae06f06
babbb2b0
389d740b
bb15a2ad
ba7ca13e
ba6c8774
badfda60
baaa38bc
bb933284
bbe3575f
bbe0a6c9
bbaef9b3
bb24be24
baefc34b
bb85f81f
bbabe19a
bb8921d6
bb4df79d
bad24182
3b02a8e1
3a34299e
bb78ba82
bb6c424a
b936a0a2
3a9b71c5
3b51b2a3
3a4977f0
ba4cec50
baf1731a
39121eac
3b264ba0
3aca15e3
3a84daa0
b8aacfca
39de3c18
39de7167
bad8327c
3a5a7620
3a8f19c8
3abb0d29
3b0331ee
b93f9eb1
ba75549f
bb173628
bacac204
3b153684
3b8dc974
3ac77e10
3a177fa0
bb36e97c
bad50c08
ba694d4c
bb09d842
bab1e7a2
ba37248c
b86015cc
39f6f2f6
ba16de1c
ba1b978e
3b3dcc28
3b2de669
b9fb735a
3a584580
bb409721
bbac16de
ba94c7c1
ba96a2f2
bad39802
396dfd1a
3a7f2d6a
3b147755
3b4126aa
3affb6fe
39df3600
bafcb126
bad816d6
3a1b436d
3b03a26a
3aa40eb5
b79ef52b
baa13cb0
bacd2882
ba62e3a7
ba06200f
39b647e0
ba810fac
bb0fb740
bb623b6a
bb9e5731
bb7106db
baeac7e1
bb46abdc
bb426b54
bb18a501
bb459b0e
bb8ca9e6
bbad0dd2
bb5685f2
bb5056a8
bb62493e
bb17d250
bb8bf363
bbd7d057
39a836e0
3ac779ea
ba70adfc
baf1a560
3a86da8b
3b277d72
b8ab550d
3af27ccc
3b0b686e
3a775b38
ba0d78d4
b9379d63
b99de966
3aba6fda
ba921551
bb1b9686
ba333ea7
b9f10294
ba92c8da
ba1da1d6
bb972907
bb964f26
baa4d944
3a250ff3
b9a55695
bb28b5e8
bb5fc5ec
bb193952
bb7245b3
bac3db36
ba506ab5
bb48a34c
b8ca3d22
3b0c30ae
ba440cd4
3a944749
bb83d414
bb412854
bb8c8ba0
bb848c07
bb9bbb4e
bb1c4ad2
bb6b334e
3a126ec2
bb29e599
3a8be064
ba156bdd
bad2242b
bac108c3
380f22c8
bb5f3c0f
bb3a216e
3aee6e7a
3b13f660
3b074746
3a2e64dc
bb0fcf6e
b98661b2
3b7565a8
3aa3765e
ba3d14c3
3ac241d2
bac9e222
3b2e7d10
3b903f82
3907884e
bb3ca97a
3a5a23a0
3ac4a514
3a4078de
3a21d2b8
ba93a447
bb657b6d
bb1718b4
ba9ef5d8
bb334d96
bb282f38
bad4232b
b8cefafe
bae67d05
bae82e1c
bad843ce
b7096406
3a0e549f
bb077a2f
bab61688
bb7d3a5f
bb7d234e
ba17c9c7
bb19fe2a
bb4cef85
bad5b236
bbe8bc6b
bbecba14
bb586352
bba5df88
bb626e84
b8f7b8a6
bae62986
bb29b818
bad7650c
ba362c00
b9ba923c
ba8f91a0
bb053a61
ba821209
baf205a5
bb078127
bb81f6c9
bb4ac912
bb483371
bb49eb38
badb8669
ba109c1d
bb0a2a06
baef6f3a
bb174b81
bb0d8b02
baab1f52
b934d6ce
bac8ef1c
bb9f522c
bb744818
bbd317bc
bb69f728
3a7c270c
ba53be1c
bbb411e9
bb8b4ad6
bbc1c0f7
bb3ab8ec
3a5af283
bbb64afd
bba07447
bb65dcb4
bb8e1890
baa7ae6c
ba89d112
bb0cdbf2
badd6b9e
bb3be268
bb7aaaff
bad552f6
bbb56459
3a8b0c9e
bb2375fa
bb81a6c3
bb6b1186
b949466a
3a84ee22
3b3cff8c
baf523d2
bb245717
ba8802b0
baf9fda6
3a346f28
3b9a21fc
ba858716
bb1a5b84
baa01edc
bb2f1967
3ad06800
3a96e0dd
ba7d0acc
bb0c5236
bb756f46
bb5a7174
3aff7362
ba6ddca4
bb0d82ec
3a462a02
babdf9c2
bb447917
bada756a
3ab060fb
bb6233fb
bace9558
baacd394
baced5e6
baa0efbd
ba90a644
3b089340
3b190aee
b972f943
bb0b06ae
bafb6736
ba9ea898
3b05ea92
3a9c937a
bb178200
ba733fe0
b9d4b9db
baa8851e
3a816bd4
3a48b0bb
bb0a2181
bac020b6
3a1544a0
3a82ba64
3b5a110d
3b207c59
3a9fa141
3b4e9318
3b4a62f6
3ad3be45
3bc351b6
3bfd3357
3bd1e18a
3bd73b8a
3ba5d1e6
3b1f8c38
3b9e4730
3be3cfda
3c04a041
3bb52145
3b5e1674
baf6398d
3b3f3959
bacbd84f
baf76f48
3a389262
bb126899
ba9e7472
3a1f5ebc
3aa7ee14
ba35aef2
ba8316a6
3a7e3ed0
bae70161
baa2fb9c
3a94c516
3a28be86
396b199c
3a156e03
ba7444a7
bb43d794
bb415baa
bb2ccbac
bab63fad
3b19877f
b97bbe4e
bb5499aa
bb63f2b0
bb6d591e
baa32bec
3ae68b0e
ba85a60e
b998a18e
bb1e2b07
bb044880
3ab67b06
b9963ed6
3a97d27e
3af3f972
ba360835
3ab8921e
ba36cf20
bb0c8cac
ba28d7be
b8ced6f8
b9b01b91
3b3a689e
3abc9ace
bb3e84bc
b90e1668
bb60ab5b
bb1a16b6
b9f76369
3a16059c
ba9b3e14
3ac846c1
bab3321c
b8be6d3e
baae11f1
390879f6
3ac13577
3a2f968a
b9a4170a
39c59242
399e5272
bb1013b0
bb0b28d4
bb266740
38b29562
3a6e6868
39bb92ae
3a7e3adc
b9c6f8da
bba6a77e
3a49aeb2
3b8d1826
3b2cfb5c
3ae6e250
bb51590a
bb264202
3b543af1
3bc9eaa6
3bb03d2e
3b32d710
baeef2d8
b8304d2d
b8d9a596
3b85eab6
3b05d11a
baecf272
ba2aab37
3b0f5536
3af0e0f2
3b87ee6d
3aeee1b6
bade84a0
3a993ba6
3ac956a8
3acdf213
39f29d88
39cf004a
b851e20a
3b686ba6
3b63e8de
3ae1e07e
ba1f576c
bb0adfac
bad1ad41
3ab956ef
3b08856a
3a4cde4b
3a0bd3a6
b72f15c0
bac11697
397eb77e
bb3b4c14
bb9d1570
bb09d32c
bb7c769e
bbcf4108
3a56a55d
baf258db
bb0c545b
39b43f04
bafc4bb6
bb68b6a2
3a801bb2
3acca918
baea949c
ba34f0b1
ba416d57
ba9740f4
3a3cf42c
3a913d0c
bade0003
ba44225c
baa5b2bc
bb251370
38c8cf6d
38c8d432
b91d6944
badaaba5
baf20c06
3afa1cc4
ba57beb5
ba0ebc50
ba80d29c
babca5de
bb745e48
bb195e0c
bb4f1f15
bab04e6c
ba9dff71
bb51521f
bb6e6024
bb856814
bb825ba9
baeab60b
bab669b3
baf16220
bb1a54bb
bb324f98
bb068d61
3a177904
ba9195e0
39a1e628
ba94d360
bae3dde2
baa94a82
3ab9d294
3a58b37e
3b5cafb6
3aff906c
3a4f61dc
3a20afc4
baa37c26
b92ed0e9
3aa51b7b
3b6b8a5e
3b606e1a
3b4daff4
3a236dfa
3b006220
3b079003
3afc3481
3b722f7f
3b2736d6
3ae8f500
3ba2210f
3a10894e
3a8f4cb4
3afd8acd
3b24dff7
3a0f3525
3b0f7fbf
baea6591
bb07e6c1
b9880c0c
b92b1576
b9f0ba44
bad1e1a4
bb572f60
b732ad48
3ac2d672
ba31efc0
bab0847e
ba714d11
bad37aa0
3b1b8aa8
3b781ab4
3aeaf956
bb09b0ce
3b011692
3a7614da
3b11a3d8
3b6e8b66
3b20f83a
bb3a403a
bb0f1fc4
ba03eede
ba329385
baabc50c
bafce302
ba1688fd
38d5c15f
ba67851e
ba2d4194
38fb0350
3a8b33e0
bb460e46
bb13b63f
bad36d5f
ba2c8570
bb08d560
bae47eb7
bb9e71de
bb8bc56c
ba1d52d6
385b3cac
bb5c26bc
bb69c580
37e5ce03
3a467ee4
3b655c69
3b7218ae
3a95a67c
3a94a062
3b10e086
3a9e4a03
3a4ced44
b9f736ca
bab42f67
3a97c890
bb6be141
ba443758
b99d097a
38101efc
3a07a06c
ba060bfe
3a41161c
3aa007a4
ba110f3e
3afab7c2
3b5ef758
3ab494bf
3b096b73
3b0ee62c
3b029986
3b77d1e3
3b284d4e
3a772c53
39dd00ea
3b15bdfe
3ad2e47e
3a076927
b84799b6
39d75680
b9bbc3aa
3a3404ae
39e19d12
b99478aa
39fa0f0a
38a4f918
ba803f23
b8c77475
bb743451
bb8504ee
bab94dc2
baadd8ac
bb42dade
bb58fffc
bb8d5da0
baf820b9
bab3f136
bb54bc9c
b9a0811e
39c7c4a8
ba861e42
baa2b03c
b9ba7cb0
39f5ca96
ba9fe664
b94c41aa
bac4c81e
bb397deb
bb0bd4f6
bab5669e
ba89caf4
ba573534
baced9b6
baeb64e1
bad604ec
baad832e
3a312e14
ba8cc040
bacc45f0
bacc7a04
b9596830
ba8b99a6
bb17bd94
baddfd99
bb57bb0f
bb0ad8d3
ba941783
bbae2f56
bb8c12da
39b8c4f5
3ba03286
3b627e7d
bac7f14b
bb8b6059
b9f717ad
3b451f8f
3b4ea604
3b334621
ba14b99e
ba87f4d7
bb2474a8
3b053df4
3a0f6535
bafde7c2
bad39722
bb03f2d5
baa819f4
3ada9184
380ac1ca
bb03a7e2
babc3f76
bab0b160
3a3bd7d4
3b4e7675
3ae4001d
b9acd72a
bad3d944
3b089570
3b540009
3b16c378
ba92a9f2
ba8fe866
3a253a9e
3b4ad7da
3afd7233
3ada8ecc
b93ebfca
3a533900
3980cd60
3b09b4d2
b92b6912
bab9e3a2
bb4c0de2
bb72775c
bb10d00c
b9f2014a
3a6ed869
3a511754
babcd5ba
bb065f84
b81b9542
b8b64454
394a727c
3a8ac632
b928de8a
ba028b79
3b7f2f6a
3abc0137
bb21ad0e
b9eb873a
3aba52fe
3a676698
3ae72dbe
ba496ff6
b98f5e96
38837c3a
3a68723e
b7c58d0c
ba4904aa
398fb78a
b7c6764a
bb4d3ac0
bbacf8e2
bb3d8395
ba391ba0
b8c13c14
3b40bef8
3a3fa8d8
3a828f4d
380f3cc9
baf91d6f
ba40c337
3b8acc56
3af56c77
3a290a1a
3920ed9a
3a6c4cfa
3b1e7452
3b6a3796
ba1b1d95
ba1ea8de
3aa1ce90
3b157715
3b866b7c
3b073c38
ba782060
3b026824
3b871ebe
37ae93b4
398b194a
3b879300
3acdb8c4
3b518eea
3ba22ec8
3a5bca08
3a995286
3af0b6bd
3a5359aa
ba22792c
3aec2728
3b43e8e0
3b046c22
b792b1a6
3b587116
3b994198
3bbf31ac
3b5793a1
3b13fdbe
ba958388
3b66ece2
3be7057f
3bca53f6
3ac3489a
ba1efc0e
3aebecfa
3b194790
3bd4aae4
3bf0186e
3b68f133
3b073a5a
ba545f4c
b9a356fc
3b8f3e3d
3b608d09
b9f1ea3a
bae4d6c9
bb690956
bb16973a
babb8467
bb7360d4
bb6953b4
bbbd842a
3b5e9889
38d7b51a
ba3a383b
bb0dc7b6
3921b25e
3b546173
b9de5e5f
ba29b95a
ba6fc3d1
bb1a58c9
bb33ef76
bb20e5bf
bb0bd8bb
bb0fa61b
bb486656
bbab6174
bb936300
bb470f10
bae71d13
bb8f0172
bb845cfa
bb942425
bb9ef96e
bae177f2
ba817846
bb523cf1
ba9995c0
b92afc7f
bb0704ac
3a5a0a30
bb384680
3b10c164
3b6cc200
3b72268a
3aa147da
babe50c0
bb23adb6
bb5e4a07
bad69445
bb08cec2
bb9e1d70
bb3a1304
bb8c7dff
bb614e78
babcd024
baa49ccb
bb62a948
bb4d38d6
bb408264
bac04d24
bacebb83
bb24557d
bb11beb0
bb5f2ef9
bb9214de
bb5c3d56
bb4a09c7
bbcf72c4
bbd59e4c
bbade5ae
bb9c910c
bb618879
bb94a4b6
bbbe0bc0
bbe4c159
bb9b965e
bb6df94e
bbcd2822
bc017e7c
bbd3b084
bbb78886
bb9eac08
ba181678
3a4ca5a4
b9b0aa32
ba5437fd
3a989086
3a9081e6
b87365db
b9fcf78d
bb4698c6
bb483932
bacf2e52
bb670fb0
3a2d47e6
ba8aa2ba
bb8933c0
bb78fd0e
baa5e51c
b9daa51c
bb137eba
bb1824dc
bb0c4d20
bb8c0420
bb0ba213
37b8e4c0
bb3098a4
bb273e10
bb3ef51a
bb616f3b
bb31ff96
bb2d07ab
bae3d49c
bb67a084
bba1bbd4
bb89ec40
bb9463a8
bb8c9ded
bb45e51c
bb22ed38
baa33ac6
39252c4b
ba4e2860
bad7cfbf
3904e64c
3b287fb3
3b7a96ca
3b92af3c
385f4771
b924e9e2
baa55849
3a96e25d
3b09b35e
b9ef17c5
bb67ac1c
bb220fda
b8a8bda4
39949257
b984de66
bb05b90c
bb15c285
bb010d82
3a043e14
39c8374f
bb0d7edb
bac638f6
3aa34d32
b90b1fd6
376e3c7e
3b29b1da
3aff7234
3abb6f4d
3ac1ec88
39e1a9a9
b9ed17d7
bb16c07c
bb12521e
bb0ba54e
bad05d5b
b9d98c68
3b00e335
3a811094
bb8f03b2
bb49e5fe
3a8dbe34
b9f3744e
3a137bb8
3af94ea4
bb1c20a1
baaa68b5
3b1ecf7a
3af8c62e
39f6001e
3b31beb2
3ac8f3bc
b8b8934a
3a6feb9c
3a5bc45c
3ac3b131
3a08040e
3b071efd
3b1f8e18
3961248f
ba76b706
3b434456
3acb78a0
3b8467e9
3b697854
b9da9e34
ba26fecc
bb01b9fa
ba9bc096
ba6fcf05
ba69965b
b90d7906
bb124c89
bacc593b
bad0d8a2
ba784abe
398415f7
b88da49a
38b0b3c7
bad74bf8
bb28f3dd
bb661c5c
bb51ba9c
bb0471d8
ba9d70f4
b493615e
bb219d02
bb865ba3
bbb343e6
bb84c9e4
bb065924
39905b14
bb0689d5
bb50ced2
bb4cf769
bb1c750a
bb025820
b98da7dc
3a44ddf4
3934f4fe
3ab7c068
3b2760a6
3a181a1a
baf9ae62
bb329c92
baaf3f36
baf4c5d5
bb24ec16
bb0e1ec3
babbd8cc
b9e99e74
bacc00c8
bb571d34
baff023e
ba83811d
bb242f85
ba8d28aa
bb97f87a
bbd06c1a
baf85898
baa87e10
bb751cb2
ba40912a
bb6bcad9
bb7aaede
ba8b3df2
baee5332
bb11fdae
3a3ed45e
ba7e0c60
ba4917b7
3986275d
bb090618
ba437993
b9892f86
bb390aa0
badc1822
39cb71c6
38b4a1d4
ba5e8bad
3a8fb9e6
3b0c2812
3ac39088
ba4f17f7
babdfb0c
38e3c9f2
b91605ce
bab8250a
b99c04c8
3a8295ec
38c49128
b9f8e5d3
ba55c010
ba823c50
ba453c3a
b9b51634
bae76c86
babf0f70
ba97332d
b990d13a
b89631ca
bacf9f60
3832391f
b88864ec
399ce87e
bb672636
bb37a430
3a9b2d8e
3b002f0b
baa11b62
bb426b03
bb890a3e
bb199da1
3a8fdf0c
39a2ecf0
ba8032f0
b9a85d34
3a525096
3a5dd544
3b5f427e
b9bcca0a
b96658bd
3b00d534
3a83d2b0
3b91a21c
3b5b0a29
ba22c160
bb70b73b
ba5e4c02
3ac93ce4
3b717ae4
ba27783a
bb808787
ba432bf4
bb0e7c8c
3a257153
b79daafe
bb32399e
bb7c7aee
3a8d32f8
bb104ebe
3ad8c330
bb3bc334
bb3c12f7
babd3b19
3a6549c3
ba38d8af
baa186d0
bb3f269a
bb55495a
bb3a768b
3a85a244
3b682644
3b246685
3b417c52
3ad2d0cc
3b17a996
3b5ecbf1
3a9caf6c
3a0c34be
3b11120c
3a89d6a4
3b1f9284
3ba86c34
3a639577
b8c14ee7
b6cf904a
b8f4b8f7
3b1f4b98
3b1bb20a
3b3c5186
b9e73418
3a09d7d8
3b17cf60
3ae12cdc
ba90d892
ba1358ea
bb4964a2
bb2d5f5a
39efe882
b896e158
3881b93a
3a5acb5e
bb2abedc
bb18d516
ba94e909
bac6930c
3aec914e
3b30c64a
3b43cea0
3b48372d
3a370e92
39774064
3b204ebc
b8a379c4
3b78d6c6
3b92ee60
3abdac89
3a5f3a32
3b947e65
3b7ff06e
3bb80366
3b926294
3a91f23e
3b74319b
3b81742a
3b055336
3b0c0fdd
3b2c17aa
3a253ff8
3b15e490
3b5600f8
3af6c852
3a4f99cd
3a461edf
3ad1bc20
3b0d20d7
3b205cf8
ba0f80af
bac8370e
bb22b0e4
bb2b4cad
bb108964
3a952fec
b96893ad
ba8d3a36
ba90ed2c
3aeac6ca
3b81d6fa
ba68a51c
ba86e7b6
bb3ceaa2
bb57b7aa
39dcdfd6
3b3e353e
3a8cea9d
3ab06035
bad5ffee
ba0d5f06
3ae08dbc
b8d6056e
3b85c354
3b6439b6
39135e86
3a9ffef8
3b465db3
3b162382
3b8b042a
3b95f176
3b86abc7
3ba31b92
3bd06c76
3b71e1bb
39d3eda9
3a88144d
